// memory data file (do not edit the following line - required for mem load use) 
// instance=/tb_mvm/xbar_weights 
// format=bin addressradix=h dataradix=b version=1.0 wordsperline=4 
 @0 10010101000000 1110000010111001 1011010110000111 111100010101000
 @4 1110011101011101 10110011000101 111101011001100 1111000111011111
 @8 1001100111000111 101000110100010 100101101000 10010010110101
 @c 1111011111011011 1011111001011101 1011011011000101 1100101010000
@10 1101111111100011 111001000000111 100100011100100 110011111011011
@14 1111000000010010 1000110010110 1000110111001111 110101001000011
@18 101001011000111 1011011010010001 1111000010001100 1011001100000
@1c 111011101100011 1011100110100 111100011010011 1010001000110011
@20 111110101001001 101000001101110 1101100101111 1110100110001111
@24 1110100010000010 10011011010100 1001000000100001 1110100100100000
@28 1110110000001001 111100001100001 10010101011001 1110010000001001
@2c 1111000111100010 10110100000111 11100011010000 1110001011111011
@30 1011000111011 1100100011010 10000001101000 111111001000001
@34 1100010101000111 1010010110011100 1010011010110110 110101111000111
@38 111100100111100 1100011111001000 110011111011000 1010001011101100
@3c 101001001000000 1000111110011 1110010101111110 1010111010111000
